conv1_param_0 241.12511647687472
conv2_param_0 514.0083391310976
ip1_param_0 1131.5223067329875
ip2_param_0 516.3349614503815
out_param_0 1.0
conv1 127.9666671471333
conv2 73.80437651365462
ip1 28.90226421256252
ip2 26.302763503259253
out 5.0